00111111001110111111101011111010
00111101101111110100101001101101
00111101100010101100010000001100
00111111011000101110010001010101
00111110100001010001011110010001
00111111001010100000110101100110
10111100100000011010101110101010
00111110101001100101101000100101
00111111001011111001111000101100
00111101011111111110101001010010
00111111000101001110000101110001
00111110011100011101000010100110
00111111001100100110101101010000
00111110010001110010111000010001
00111110111110001100011011011101
00111110111001000011010100110110
00111111000000101110011101010011
00111110010101011001010011110010
00111111000100110101100100000110
00111110101010011111101101011000
00111110111111111110010110010000
00111111001101100011011011110010
00111110100110110000110111110001
00111111001101010101000101000011
00111101001110100101001110000000
00111111001111101010000101100101
00111110100110001100111100010110
00111110111101101101011111111011
00111111010100010000101111001100
00111111001000000100010000010111
00111110110000001110110100100110
01000000000001000001100100101111
00111111010001011110101010010001
00111110101100010010000101011110
00111111000111001111001111011001
00111111001001111001001101010000
00111110110001111110100111100100
00111111000000100011100110011110
00111110100001100110101101101111
00111110011100100110000010001001
00111101101000110011111101001011
00111111100011110001100010000001
00111110100001011100100001000111
00111111010111101010100010000101
00111110010111001001101101010000
00111111010001111011001100110101
00111110101111011000010011001000
00111110111101011011100111100100
00111110110111001110000000101100
00111111000000100010011111000110
00111110011011000000011101001111
00111111010000110111111010111110
00111110101101010101100110000111
00111110111010100111011101100101
00111110111011101011100110010001
00111101110010011011101111101110
00111110110000101011100111111100
00111111001010110011011010011011
00111110110011011001001100000101
00111111011001111011010011011110
00111110110111010000001110011100
00111111101001101010100001100101
00111111000001111101101100110100
00111110111110101101100011000100
